// SentinelEdge — fault_model.h
// Auto-generated by ml/09_convert_real_model.py  —  DO NOT EDIT MANUALLY
//
// TFLite fault classifier model embedded as a C byte array.
// Source: models/fault_model.tflite  (6,152 bytes, 6.01 KB)
// Load with: tflite::GetModel(fault_model_data)

#ifndef FAULT_MODEL_H
#define FAULT_MODEL_H

#include <stdint.h>

// Aligned for efficient ESP32 flash access (DRAM copy not needed with PROGMEM)
alignas(16) const uint8_t fault_model_data[] = {
  0x20, 0x00, 0x00, 0x00, 0x54, 0x46, 0x4c, 0x33, 0x00, 0x00, 0x00, 0x00,
  0x14, 0x00, 0x20, 0x00, 0x1c, 0x00, 0x18, 0x00, 0x14, 0x00, 0x10, 0x00,
  0x0c, 0x00, 0x00, 0x00, 0x08, 0x00, 0x04, 0x00, 0x14, 0x00, 0x00, 0x00,
  0x1c, 0x00, 0x00, 0x00, 0x94, 0x00, 0x00, 0x00, 0xec, 0x00, 0x00, 0x00,
  0x5c, 0x0a, 0x00, 0x00, 0x6c, 0x0a, 0x00, 0x00, 0x98, 0x17, 0x00, 0x00,
  0x03, 0x00, 0x00, 0x00, 0x01, 0x00, 0x00, 0x00, 0x10, 0x00, 0x00, 0x00,
  0x00, 0x00, 0x0a, 0x00, 0x10, 0x00, 0x0c, 0x00, 0x08, 0x00, 0x04, 0x00,
  0x0a, 0x00, 0x00, 0x00, 0x0c, 0x00, 0x00, 0x00, 0x1c, 0x00, 0x00, 0x00,
  0x3c, 0x00, 0x00, 0x00, 0x0f, 0x00, 0x00, 0x00, 0x73, 0x65, 0x72, 0x76,
  0x69, 0x6e, 0x67, 0x5f, 0x64, 0x65, 0x66, 0x61, 0x75, 0x6c, 0x74, 0x00,
  0x01, 0x00, 0x00, 0x00, 0x04, 0x00, 0x00, 0x00, 0x94, 0xff, 0xff, 0xff,
  0x0a, 0x00, 0x00, 0x00, 0x04, 0x00, 0x00, 0x00, 0x08, 0x00, 0x00, 0x00,
  0x6f, 0x75, 0x74, 0x70, 0x75, 0x74, 0x5f, 0x30, 0x00, 0x00, 0x00, 0x00,
  0x01, 0x00, 0x00, 0x00, 0x04, 0x00, 0x00, 0x00, 0x8a, 0xf5, 0xff, 0xff,
  0x04, 0x00, 0x00, 0x00, 0x0b, 0x00, 0x00, 0x00, 0x69, 0x6e, 0x70, 0x75,
  0x74, 0x5f, 0x6c, 0x61, 0x79, 0x65, 0x72, 0x00, 0x02, 0x00, 0x00, 0x00,
  0x34, 0x00, 0x00, 0x00, 0x04, 0x00, 0x00, 0x00, 0xdc, 0xff, 0xff, 0xff,
  0x0d, 0x00, 0x00, 0x00, 0x04, 0x00, 0x00, 0x00, 0x13, 0x00, 0x00, 0x00,
  0x43, 0x4f, 0x4e, 0x56, 0x45, 0x52, 0x53, 0x49, 0x4f, 0x4e, 0x5f, 0x4d,
  0x45, 0x54, 0x41, 0x44, 0x41, 0x54, 0x41, 0x00, 0x08, 0x00, 0x0c, 0x00,
  0x08, 0x00, 0x04, 0x00, 0x08, 0x00, 0x00, 0x00, 0x0c, 0x00, 0x00, 0x00,
  0x04, 0x00, 0x00, 0x00, 0x13, 0x00, 0x00, 0x00, 0x6d, 0x69, 0x6e, 0x5f,
  0x72, 0x75, 0x6e, 0x74, 0x69, 0x6d, 0x65, 0x5f, 0x76, 0x65, 0x72, 0x73,
  0x69, 0x6f, 0x6e, 0x00, 0x0e, 0x00, 0x00, 0x00, 0x6c, 0x09, 0x00, 0x00,
  0x64, 0x09, 0x00, 0x00, 0x44, 0x09, 0x00, 0x00, 0xf4, 0x08, 0x00, 0x00,
  0xa4, 0x08, 0x00, 0x00, 0x94, 0x06, 0x00, 0x00, 0x04, 0x06, 0x00, 0x00,
  0xb4, 0x00, 0x00, 0x00, 0xac, 0x00, 0x00, 0x00, 0xa4, 0x00, 0x00, 0x00,
  0x9c, 0x00, 0x00, 0x00, 0x94, 0x00, 0x00, 0x00, 0x74, 0x00, 0x00, 0x00,
  0x04, 0x00, 0x00, 0x00, 0x3a, 0xf6, 0xff, 0xff, 0x04, 0x00, 0x00, 0x00,
  0x60, 0x00, 0x00, 0x00, 0x0c, 0x00, 0x00, 0x00, 0x08, 0x00, 0x0e, 0x00,
  0x08, 0x00, 0x04, 0x00, 0x08, 0x00, 0x00, 0x00, 0x10, 0x00, 0x00, 0x00,
  0x28, 0x00, 0x00, 0x00, 0x00, 0x00, 0x06, 0x00, 0x08, 0x00, 0x04, 0x00,
  0x06, 0x00, 0x00, 0x00, 0x04, 0x00, 0x00, 0x00, 0x01, 0x00, 0x00, 0x00,
  0xeb, 0x03, 0x00, 0x00, 0x0c, 0x00, 0x18, 0x00, 0x14, 0x00, 0x10, 0x00,
  0x0c, 0x00, 0x04, 0x00, 0x0c, 0x00, 0x00, 0x00, 0xcf, 0x9f, 0x5d, 0x9c,
  0x2e, 0xc2, 0x42, 0x09, 0x02, 0x00, 0x00, 0x00, 0x02, 0x00, 0x00, 0x00,
  0x04, 0x00, 0x00, 0x00, 0x06, 0x00, 0x00, 0x00, 0x32, 0x2e, 0x32, 0x31,
  0x2e, 0x30, 0x00, 0x00, 0xa6, 0xf6, 0xff, 0xff, 0x04, 0x00, 0x00, 0x00,
  0x10, 0x00, 0x00, 0x00, 0x31, 0x2e, 0x31, 0x34, 0x2e, 0x30, 0x00, 0x00,
  0x00, 0x00, 0x00, 0x00, 0x00, 0x00, 0x00, 0x00, 0x90, 0xf6, 0xff, 0xff,
  0x94, 0xf6, 0xff, 0xff, 0x98, 0xf6, 0xff, 0xff, 0x9c, 0xf6, 0xff, 0xff,
  0xd2, 0xf6, 0xff, 0xff, 0x04, 0x00, 0x00, 0x00, 0x40, 0x05, 0x00, 0x00,
  0xe8, 0xfe, 0xfe, 0x9d, 0x07, 0x21, 0xeb, 0xe8, 0x2a, 0xf6, 0x4b, 0xf7,
  0x42, 0xcd, 0xc8, 0xf4, 0xf1, 0x7f, 0x3c, 0xb2, 0xf8, 0x48, 0x37, 0x62,
  0x65, 0x59, 0x1c, 0x3f, 0xc9, 0xff, 0xf0, 0x1f, 0xd7, 0x0a, 0xd3, 0xe0,
  0x1f, 0xc9, 0xd7, 0x05, 0xaf, 0x29, 0x81, 0xce, 0x2a, 0x8b, 0x79, 0xd9,
  0xc4, 0xb9, 0xd3, 0xb6, 0x5b, 0xf3, 0x1d, 0xa5, 0x4e, 0x4d, 0x9e, 0x1b,
  0xb6, 0xcf, 0xa4, 0x12, 0xd2, 0x2f, 0x30, 0x2c, 0xc1, 0x9b, 0x0c, 0x44,
  0x2d, 0x7a, 0x3d, 0x98, 0xdf, 0x29, 0xd0, 0x6c, 0x1f, 0xea, 0xa7, 0xda,
  0xc7, 0xa0, 0xd7, 0xce, 0xcf, 0x7c, 0xf6, 0xc3, 0x31, 0x0a, 0xa5, 0xc6,
  0x2e, 0x3d, 0x75, 0xa6, 0xe0, 0x92, 0xac, 0x77, 0x1e, 0x21, 0x92, 0x2e,
  0xc2, 0xb2, 0x68, 0x24, 0xaa, 0xf3, 0xfd, 0x88, 0xe0, 0x7f, 0xd2, 0x11,
  0xaf, 0x3d, 0xc6, 0xf0, 0x4f, 0xf3, 0xbd, 0xfe, 0x2f, 0xe3, 0x67, 0x81,
  0x54, 0x3c, 0xd7, 0x09, 0x02, 0xcd, 0xe6, 0xb4, 0x4b, 0x61, 0xc9, 0xb0,
  0x0a, 0xec, 0x86, 0xdb, 0xd2, 0x39, 0x42, 0x0b, 0xff, 0x07, 0x8c, 0xac,
  0x69, 0xe3, 0xed, 0x39, 0x2a, 0xa1, 0x24, 0xc3, 0x34, 0x49, 0x4a, 0xf1,
  0xb5, 0xe6, 0x3d, 0xac, 0x2c, 0x92, 0x16, 0xdb, 0x32, 0x01, 0xc6, 0x6d,
  0x86, 0xea, 0xe3, 0x3d, 0xd9, 0x54, 0x02, 0x8e, 0x36, 0x1f, 0xf1, 0x96,
  0x45, 0x4c, 0x23, 0xb4, 0x3d, 0x65, 0x26, 0x2d, 0xe1, 0xb7, 0x3b, 0x30,
  0x5f, 0x57, 0x0f, 0x11, 0x81, 0x5b, 0xfc, 0x0e, 0x2a, 0xc1, 0x46, 0xc5,
  0x24, 0xbf, 0x0f, 0x4b, 0x5c, 0xdd, 0x15, 0xbf, 0x07, 0x1f, 0xf8, 0x51,
  0x31, 0x14, 0x14, 0x27, 0x55, 0x31, 0x3c, 0xf3, 0x9d, 0x0a, 0x5c, 0xe4,
  0x0d, 0xe1, 0xf6, 0xc6, 0x4a, 0x2a, 0x2f, 0x46, 0x50, 0x36, 0x81, 0xce,
  0xa2, 0x79, 0x66, 0x81, 0x0f, 0xae, 0x21, 0xdb, 0x68, 0xf6, 0xde, 0xce,
  0xbf, 0x1d, 0x1d, 0xb6, 0x82, 0x2b, 0xcb, 0xd9, 0xfd, 0x64, 0xd5, 0xe9,
  0xab, 0xc7, 0x1e, 0xd6, 0x52, 0xe0, 0x53, 0xf5, 0x23, 0xe1, 0x1f, 0xa2,
  0xf2, 0x64, 0x19, 0x3d, 0xfc, 0x06, 0x55, 0x5b, 0xff, 0x66, 0x7f, 0xa5,
  0x30, 0xb1, 0xe3, 0x74, 0x5a, 0x08, 0x9f, 0xff, 0xff, 0xcf, 0x2e, 0xd7,
  0xf6, 0xd3, 0xde, 0xe8, 0x2e, 0x63, 0x71, 0xff, 0x09, 0xb2, 0x24, 0xfe,
  0x2b, 0x26, 0x55, 0xd5, 0xb6, 0x0d, 0x2f, 0x63, 0x02, 0x3d, 0x21, 0x4d,
  0x76, 0x19, 0xfe, 0x02, 0xed, 0x51, 0xfa, 0x4a, 0xa9, 0xc1, 0xae, 0xf1,
  0xf9, 0xb4, 0x37, 0xaa, 0xfb, 0x28, 0xe6, 0x00, 0x94, 0x23, 0xd3, 0xc6,
  0xde, 0x81, 0x01, 0xf1, 0x14, 0x31, 0x0a, 0x96, 0x03, 0x68, 0xc3, 0xd8,
  0x8b, 0xa0, 0x10, 0x87, 0xe4, 0xd4, 0xf0, 0x17, 0xbe, 0xbf, 0x48, 0x40,
  0x5f, 0x9f, 0x99, 0xef, 0x79, 0xeb, 0xe7, 0x34, 0xf0, 0xcd, 0xe4, 0xca,
  0xeb, 0x86, 0xf1, 0xa2, 0xa2, 0x1e, 0x7c, 0xb1, 0x50, 0x10, 0x54, 0xfc,
  0xa9, 0x46, 0x16, 0x0e, 0xbb, 0x8f, 0x2a, 0x1b, 0xbc, 0x64, 0x81, 0x6e,
  0x56, 0xe6, 0xd4, 0x3f, 0x03, 0x17, 0xf4, 0x0c, 0x1c, 0xef, 0x30, 0x4e,
  0x81, 0x1a, 0xbd, 0xf0, 0xef, 0xe8, 0xf8, 0xbe, 0xe5, 0x1e, 0x21, 0x2e,
  0x17, 0xe9, 0xb4, 0x10, 0x02, 0x2d, 0x19, 0xa9, 0xe8, 0xb4, 0x22, 0xdd,
  0x10, 0xd9, 0xfb, 0x15, 0xd3, 0xe9, 0xbc, 0x45, 0xb9, 0xc5, 0x1a, 0x1d,
  0xd9, 0x60, 0x08, 0x1a, 0xec, 0x3b, 0xd7, 0x46, 0x60, 0x64, 0xc5, 0xa3,
  0xf1, 0x0b, 0x39, 0xdb, 0x09, 0x36, 0x50, 0xa2, 0xc5, 0xef, 0x90, 0x51,
  0xa4, 0x2d, 0x33, 0xd0, 0xe9, 0x91, 0x17, 0xfd, 0x7f, 0xd4, 0xae, 0xba,
  0x65, 0xab, 0xf7, 0x2a, 0xef, 0xc2, 0xcd, 0xd7, 0x1b, 0x9f, 0xf3, 0xc9,
  0x94, 0x11, 0x96, 0x14, 0x47, 0x1f, 0x0b, 0x95, 0xdd, 0xd9, 0xd8, 0xe5,
  0xc2, 0x63, 0x88, 0x40, 0x2f, 0x10, 0x26, 0xec, 0xff, 0x81, 0xd4, 0x2d,
  0xf8, 0xe2, 0x92, 0xd7, 0x00, 0xed, 0xc9, 0x7f, 0x46, 0x1b, 0xfd, 0xe1,
  0xe6, 0x6c, 0xc8, 0x55, 0x1e, 0x28, 0x28, 0x3a, 0xfc, 0xbe, 0x64, 0xbe,
  0xd4, 0x28, 0x79, 0xe8, 0x2b, 0xee, 0xdc, 0xeb, 0x31, 0xde, 0xef, 0x3e,
  0x3c, 0x0d, 0x6e, 0x06, 0xd1, 0xf4, 0x1c, 0x52, 0x32, 0x51, 0x51, 0x4d,
  0x7b, 0xae, 0xb8, 0xdb, 0x02, 0xa3, 0xaa, 0x16, 0xce, 0x27, 0xb4, 0xc5,
  0xd0, 0x19, 0x20, 0x84, 0xba, 0x81, 0xd5, 0xe5, 0x94, 0x27, 0xa6, 0xa2,
  0xb1, 0x23, 0x2d, 0x0f, 0xad, 0xb6, 0xf8, 0x0f, 0x39, 0xad, 0xa4, 0xd9,
  0xc2, 0xef, 0xba, 0xf6, 0x1e, 0xe4, 0xf6, 0xd1, 0xe0, 0xf2, 0x20, 0xd0,
  0xb5, 0xf4, 0xe5, 0xf9, 0x09, 0x16, 0x01, 0x1b, 0x9c, 0x28, 0x2c, 0x24,
  0xe5, 0xc8, 0xd3, 0xf6, 0x22, 0x3e, 0xcd, 0xf1, 0x04, 0x21, 0xe4, 0xb9,
  0xb7, 0xae, 0x59, 0xb5, 0x95, 0x32, 0xee, 0x90, 0xb5, 0x45, 0x81, 0x99,
  0xed, 0x3c, 0xb8, 0xbe, 0x24, 0xa8, 0xf8, 0xe7, 0xde, 0xb8, 0x92, 0xf8,
  0xb1, 0xaa, 0xb7, 0xca, 0x0e, 0xf5, 0x98, 0x9a, 0xb6, 0x02, 0x07, 0xa3,
  0xd6, 0xe2, 0x8d, 0x39, 0x3c, 0x6a, 0x24, 0x4f, 0xe0, 0x81, 0xe9, 0x2c,
  0xbd, 0xa8, 0xd7, 0x28, 0xb0, 0xee, 0x96, 0x39, 0xf0, 0xd9, 0x00, 0x93,
  0xd4, 0xc4, 0x8d, 0x0c, 0x7e, 0xe7, 0x0b, 0xf1, 0x5e, 0x03, 0x46, 0xf9,
  0x15, 0x23, 0xc7, 0xcc, 0xf0, 0x5b, 0x09, 0x8e, 0x21, 0xc9, 0x4f, 0x56,
  0x95, 0xb0, 0x03, 0x09, 0xfe, 0x48, 0xc2, 0x7f, 0x21, 0x6c, 0xbc, 0xea,
  0xcf, 0x91, 0xc6, 0xc9, 0x81, 0x71, 0xb8, 0x16, 0x94, 0x09, 0xc3, 0xde,
  0x44, 0xa5, 0x66, 0xcb, 0x97, 0xc2, 0xa1, 0x04, 0xc8, 0x43, 0x82, 0xbe,
  0xe1, 0xc6, 0x5a, 0x95, 0x28, 0xfd, 0x3d, 0xc2, 0x8d, 0x07, 0xaf, 0xd6,
  0x8b, 0xb2, 0xb4, 0x16, 0x54, 0x33, 0xea, 0xee, 0xd7, 0x42, 0x27, 0xf0,
  0x90, 0x2b, 0x31, 0xad, 0x22, 0x0c, 0x81, 0xa0, 0xc2, 0xb4, 0x14, 0xe6,
  0x84, 0x13, 0x96, 0xfc, 0xda, 0x37, 0x35, 0xc8, 0xda, 0xd4, 0x3e, 0x2f,
  0x87, 0xe9, 0xca, 0xbe, 0xe7, 0x40, 0xbd, 0xde, 0x0f, 0xe7, 0xa5, 0x97,
  0x82, 0x66, 0x0f, 0xf9, 0xeb, 0xc9, 0x3a, 0x2d, 0x08, 0x93, 0x17, 0xe9,
  0xdd, 0x62, 0x1c, 0x2b, 0xf0, 0x88, 0x3d, 0x6c, 0x1b, 0x1b, 0xf6, 0x52,
  0xa1, 0x94, 0xb3, 0x51, 0xac, 0x28, 0x4e, 0x81, 0xf6, 0xa1, 0xfd, 0xf9,
  0xa4, 0xb7, 0x43, 0x41, 0x1e, 0x37, 0xe6, 0x45, 0xb9, 0x75, 0x40, 0xe6,
  0x9a, 0x03, 0x18, 0xcb, 0x4b, 0xe0, 0x08, 0x51, 0xf7, 0x71, 0x3d, 0x49,
  0x23, 0x13, 0x56, 0xca, 0x7d, 0xc0, 0x7b, 0x7f, 0xf0, 0xbc, 0x4d, 0x7c,
  0x01, 0xba, 0xc3, 0xe0, 0x0c, 0xc6, 0xce, 0x33, 0x2e, 0xff, 0x45, 0xb9,
  0x23, 0xd0, 0xb9, 0xe6, 0x9e, 0x1e, 0xf6, 0xed, 0xe3, 0x07, 0xbb, 0xd3,
  0x56, 0x21, 0x00, 0x00, 0x20, 0xea, 0xc5, 0x22, 0x03, 0x00, 0xdd, 0xe9,
  0xf8, 0x06, 0x23, 0xb4, 0x1d, 0xd6, 0x2f, 0xdb, 0xcc, 0x7f, 0xfe, 0x44,
  0xcc, 0xbb, 0x1f, 0x13, 0x78, 0xea, 0x1a, 0x3b, 0x53, 0x42, 0x11, 0x00,
  0xf1, 0x06, 0x71, 0x0a, 0x67, 0x24, 0x1c, 0xcd, 0xac, 0x15, 0xe4, 0x41,
  0x3b, 0xe3, 0x37, 0xc4, 0xcc, 0x0a, 0xd8, 0x74, 0x81, 0x6d, 0x50, 0xd5,
  0x60, 0xe8, 0xe2, 0x91, 0xd0, 0x03, 0xee, 0xd1, 0x4d, 0x4e, 0xf7, 0xd9,
  0xd2, 0xa1, 0xfd, 0xda, 0x20, 0x1a, 0x0d, 0xc4, 0x9b, 0xbd, 0x3e, 0xea,
  0x25, 0x3f, 0x5b, 0xcc, 0xd1, 0x91, 0xca, 0xec, 0x10, 0x20, 0x04, 0xcc,
  0xf1, 0x8c, 0x3c, 0x1d, 0x31, 0x92, 0xe5, 0x0a, 0x97, 0xfd, 0xed, 0xce,
  0x9a, 0x0c, 0xde, 0x16, 0x7f, 0x1d, 0xcb, 0x5f, 0xb2, 0x94, 0x0a, 0x1d,
  0xe1, 0xaf, 0x20, 0xad, 0x12, 0xb3, 0xd3, 0xb5, 0x38, 0x11, 0x01, 0x1b,
  0xde, 0x15, 0x3b, 0x7f, 0x37, 0x10, 0x1b, 0x8d, 0xf2, 0x9d, 0x4b, 0xb8,
  0x9c, 0x74, 0x54, 0x21, 0xa1, 0x90, 0x4a, 0x24, 0x48, 0x44, 0xae, 0x06,
  0xce, 0x16, 0x2e, 0x99, 0x23, 0xc1, 0x69, 0x2b, 0x9e, 0xfd, 0x33, 0x08,
  0xd0, 0x8a, 0x4c, 0xd8, 0xe9, 0xcd, 0xab, 0xc8, 0xca, 0x98, 0x90, 0xc3,
  0xc8, 0x1e, 0x05, 0xa2, 0xc4, 0xc2, 0x09, 0xcb, 0x5d, 0x81, 0x54, 0xdf,
  0x58, 0x38, 0x39, 0xfd, 0xac, 0xdc, 0x3e, 0x0c, 0xdb, 0x58, 0x3d, 0x29,
  0xda, 0x4e, 0x2f, 0x2b, 0x30, 0x0b, 0x93, 0xc7, 0xbb, 0x51, 0x78, 0x13,
  0xe3, 0x49, 0x11, 0x1d, 0xe9, 0xd2, 0xe3, 0x29, 0xc6, 0x7e, 0x30, 0x32,
  0x6a, 0xb7, 0x7f, 0xfc, 0xaa, 0x49, 0x23, 0x60, 0x64, 0x13, 0xeb, 0xec,
  0x23, 0x4c, 0x30, 0xdf, 0xac, 0x44, 0x90, 0x0c, 0x8b, 0xfd, 0xb9, 0x3a,
  0xed, 0xbd, 0x09, 0x0e, 0x00, 0x4b, 0xa1, 0x72, 0x3b, 0x18, 0x2e, 0x9d,
  0x02, 0x03, 0x61, 0x0f, 0x27, 0x81, 0xaf, 0x41, 0x8c, 0xc6, 0x22, 0xf3,
  0x4c, 0x1e, 0x25, 0x34, 0xcc, 0x57, 0x4b, 0x03, 0xb5, 0x2b, 0x20, 0x03,
  0xd8, 0x62, 0xb7, 0xbc, 0xd9, 0xe0, 0x0d, 0x9c, 0x0a, 0xc9, 0xd0, 0xa1,
  0xc3, 0xc0, 0x98, 0xf9, 0x87, 0x0d, 0xe3, 0xfd, 0xb5, 0x0a, 0x05, 0xe1,
  0x0e, 0xdb, 0xbb, 0xdf, 0x84, 0x4b, 0xd3, 0xe8, 0xac, 0x9f, 0xe8, 0x81,
  0x63, 0xeb, 0xd9, 0x16, 0x29, 0xad, 0xe8, 0x05, 0xd3, 0x19, 0x0b, 0x0a,
  0xec, 0x35, 0x2e, 0x9e, 0x86, 0xf7, 0xf7, 0xb3, 0xba, 0x58, 0xa4, 0x93,
  0x00, 0x4c, 0xab, 0xe9, 0x31, 0xf6, 0x96, 0x09, 0x02, 0x13, 0x40, 0xde,
  0x03, 0xe9, 0xb1, 0xf1, 0x81, 0x1e, 0xf5, 0xa9, 0xe0, 0x95, 0x38, 0x8e,
  0x75, 0xac, 0x9c, 0xf4, 0xc0, 0x45, 0xe1, 0x58, 0x68, 0x3c, 0x94, 0xd3,
  0x13, 0xbb, 0x3f, 0xa9, 0x39, 0x39, 0x18, 0x89, 0x47, 0xa6, 0x27, 0xb7,
  0x8b, 0x41, 0x2b, 0x63, 0xc3, 0x1b, 0x36, 0x7f, 0x34, 0x43, 0xdf, 0x0d,
  0x1e, 0xfc, 0xff, 0xff, 0x04, 0x00, 0x00, 0x00, 0x80, 0x00, 0x00, 0x00,
  0xe9, 0x03, 0x00, 0x00, 0x09, 0x00, 0x00, 0x00, 0x22, 0x01, 0x00, 0x00,
  0x42, 0x02, 0x00, 0x00, 0x36, 0x04, 0x00, 0x00, 0xf6, 0x03, 0x00, 0x00,
  0xf0, 0x03, 0x00, 0x00, 0x04, 0x02, 0x00, 0x00, 0xd4, 0x03, 0x00, 0x00,
  0x00, 0x00, 0x00, 0x00, 0xd2, 0x04, 0x00, 0x00, 0x4d, 0x02, 0x00, 0x00,
  0x8f, 0x03, 0x00, 0x00, 0x31, 0x04, 0x00, 0x00, 0x1e, 0x05, 0x00, 0x00,
  0x6a, 0x03, 0x00, 0x00, 0x96, 0x03, 0x00, 0x00, 0x68, 0xfe, 0xff, 0xff,
  0xe1, 0x02, 0x00, 0x00, 0x31, 0x03, 0x00, 0x00, 0x54, 0xfe, 0xff, 0xff,
  0xae, 0x03, 0x00, 0x00, 0x4c, 0xff, 0xff, 0xff, 0xe9, 0x03, 0x00, 0x00,
  0x28, 0xfe, 0xff, 0xff, 0x6d, 0x01, 0x00, 0x00, 0xad, 0x05, 0x00, 0x00,
  0xa9, 0x03, 0x00, 0x00, 0x82, 0xfd, 0xff, 0xff, 0x8d, 0x03, 0x00, 0x00,
  0x2b, 0x01, 0x00, 0x00, 0x44, 0xfe, 0xff, 0xff, 0xaa, 0xfc, 0xff, 0xff,
  0x04, 0x00, 0x00, 0x00, 0x00, 0x02, 0x00, 0x00, 0x0d, 0x10, 0xac, 0x15,
  0xbc, 0x59, 0x40, 0x05, 0x35, 0x05, 0x5e, 0x6a, 0x10, 0xdc, 0xed, 0x7e,
  0x7f, 0x42, 0x19, 0x1a, 0x16, 0xa6, 0x15, 0x42, 0xba, 0x7b, 0x3f, 0x4d,
  0xe6, 0x1f, 0x78, 0xeb, 0xd1, 0xaa, 0xd5, 0x44, 0x36, 0xd7, 0xd0, 0x0e,
  0x58, 0xea, 0xd4, 0xd9, 0x31, 0x38, 0x18, 0x27, 0x54, 0x3a, 0x72, 0x78,
  0x08, 0x2f, 0xcb, 0xf8, 0x22, 0xb8, 0xfb, 0xf6, 0x46, 0x7f, 0x10, 0xa5,
  0x46, 0xb3, 0xa0, 0xd6, 0x06, 0xd2, 0xbd, 0x46, 0x58, 0x3b, 0x73, 0xb9,
  0x1e, 0x22, 0x3d, 0x30, 0x7d, 0xd7, 0xf7, 0x7f, 0xf1, 0x7d, 0x96, 0x58,
  0x95, 0xb8, 0xe5, 0xfe, 0xc7, 0x54, 0xdb, 0x18, 0x1e, 0x66, 0x52, 0xfc,
  0x18, 0x7f, 0x5e, 0xee, 0x71, 0xf1, 0xdc, 0x1f, 0x9c, 0x17, 0x44, 0x9d,
  0x34, 0xce, 0x17, 0xed, 0xc8, 0x96, 0x5a, 0x13, 0x56, 0xf8, 0x2f, 0xda,
  0x04, 0xdc, 0xbe, 0x4f, 0x62, 0x32, 0x05, 0x6e, 0x79, 0x53, 0x45, 0x1f,
  0x81, 0xcc, 0x6e, 0x61, 0x3e, 0x0c, 0x2a, 0xcc, 0xe6, 0xf0, 0x91, 0xd8,
  0x70, 0x66, 0xcf, 0x57, 0xd7, 0x69, 0x60, 0xd1, 0xba, 0x47, 0x1e, 0x56,
  0x40, 0xc0, 0xdc, 0xc5, 0xfc, 0x5a, 0xe2, 0x01, 0xff, 0xce, 0x2c, 0xfd,
  0x7f, 0x47, 0xcd, 0x72, 0x98, 0x91, 0x1b, 0xdf, 0xfc, 0x1b, 0x47, 0x10,
  0x16, 0xfc, 0x30, 0x40, 0xa2, 0x99, 0xd4, 0x24, 0x0c, 0x14, 0x2c, 0xcd,
  0xb4, 0xb8, 0x20, 0x53, 0x24, 0xa5, 0xa8, 0xc7, 0x94, 0x4e, 0xf2, 0x20,
  0x81, 0xdb, 0x1e, 0xc8, 0x3f, 0x19, 0x23, 0xea, 0x1d, 0x06, 0x22, 0xc0,
  0xcc, 0x5d, 0x55, 0x00, 0x23, 0x4f, 0x5a, 0xe9, 0x3a, 0x04, 0x1b, 0x0f,
  0xfe, 0x7f, 0x20, 0x2d, 0xd6, 0x4d, 0x22, 0xf4, 0x1e, 0xe6, 0x97, 0x76,
  0xe7, 0xab, 0x1d, 0xcd, 0xe5, 0x4d, 0x78, 0xe9, 0xe5, 0xc6, 0x0e, 0x0d,
  0x28, 0x3b, 0x28, 0x72, 0x75, 0xf7, 0x5b, 0x0c, 0xb8, 0x59, 0xc9, 0x63,
  0xf5, 0x4b, 0x7f, 0xf3, 0x3f, 0xdc, 0xca, 0x1d, 0x29, 0x2d, 0xb0, 0xda,
  0xee, 0x23, 0x59, 0xbb, 0xc4, 0xb7, 0xd1, 0xe2, 0x7f, 0xf9, 0xd9, 0x52,
  0x1f, 0xd2, 0xc5, 0xfc, 0x23, 0x2e, 0x02, 0xc7, 0xc2, 0xf8, 0xc9, 0xc4,
  0xcc, 0x4d, 0xd3, 0xb4, 0xb1, 0x34, 0xaf, 0x36, 0xe8, 0x9e, 0x0a, 0x5d,
  0xac, 0x05, 0x0c, 0x29, 0x26, 0x2a, 0x5c, 0xd4, 0x95, 0x5d, 0x8c, 0x3f,
  0x7f, 0xc1, 0x97, 0xb9, 0x84, 0xe4, 0x29, 0xd3, 0x0d, 0x05, 0x75, 0xc0,
  0xdf, 0xbc, 0x68, 0x26, 0x6c, 0x91, 0x90, 0xd8, 0xfd, 0x3b, 0x87, 0xc3,
  0x5a, 0x3a, 0x7f, 0xa6, 0x39, 0xa0, 0xd0, 0xad, 0x5c, 0xc9, 0xa9, 0x0e,
  0xea, 0x4b, 0xe6, 0xce, 0xc6, 0xbe, 0x55, 0x23, 0xd5, 0xb9, 0x5c, 0x15,
  0xd1, 0xb5, 0xfc, 0x2e, 0xc9, 0xda, 0x1a, 0xf6, 0xef, 0x24, 0x02, 0xcc,
  0xe9, 0xfe, 0xac, 0xd8, 0xc3, 0xe4, 0x5e, 0xa5, 0x68, 0xe3, 0x6e, 0x5d,
  0x15, 0x8c, 0xd8, 0x50, 0x30, 0x21, 0xf6, 0x20, 0x0a, 0x40, 0x4b, 0x81,
  0x8d, 0x76, 0x73, 0x4e, 0xdf, 0xc2, 0x3e, 0xf4, 0x2a, 0x10, 0x14, 0x33,
  0x11, 0xec, 0x0b, 0x68, 0x1a, 0xce, 0xcc, 0x52, 0xe0, 0xcf, 0xa6, 0xed,
  0xdc, 0x7f, 0xc6, 0x03, 0xd0, 0x47, 0xec, 0x7e, 0x02, 0x25, 0xee, 0xcd,
  0x06, 0x89, 0x0f, 0x0b, 0x05, 0x66, 0xfd, 0x1b, 0x31, 0xf6, 0x70, 0xc0,
  0x7f, 0x74, 0xb8, 0x60, 0x9c, 0xa8, 0xc5, 0xe4, 0xba, 0x3f, 0xa2, 0x73,
  0x19, 0xb4, 0xf0, 0x68, 0x08, 0xa8, 0x27, 0xae, 0x9f, 0x05, 0x81, 0xa6,
  0xf0, 0xbb, 0x44, 0xb9, 0x5a, 0xb0, 0xd7, 0xb9, 0x75, 0xb5, 0x5e, 0x3e,
  0x22, 0xbb, 0xe9, 0x08, 0x4e, 0x2f, 0xca, 0xf0, 0x14, 0xb6, 0x17, 0xe6,
  0xb3, 0x0f, 0x5a, 0x1f, 0xb6, 0xfe, 0xff, 0xff, 0x04, 0x00, 0x00, 0x00,
  0x40, 0x00, 0x00, 0x00, 0x55, 0x03, 0x00, 0x00, 0xd2, 0x02, 0x00, 0x00,
  0x17, 0x03, 0x00, 0x00, 0x34, 0x03, 0x00, 0x00, 0x7a, 0x01, 0x00, 0x00,
  0xd9, 0x02, 0x00, 0x00, 0xc7, 0xff, 0xff, 0xff, 0x7c, 0x03, 0x00, 0x00,
  0xed, 0x02, 0x00, 0x00, 0xdc, 0xff, 0xff, 0xff, 0x75, 0x00, 0x00, 0x00,
  0x52, 0x03, 0x00, 0x00, 0x5a, 0x00, 0x00, 0x00, 0xc0, 0x02, 0x00, 0x00,
  0x7c, 0x02, 0x00, 0x00, 0x64, 0x02, 0x00, 0x00, 0x02, 0xff, 0xff, 0xff,
  0x04, 0x00, 0x00, 0x00, 0x40, 0x00, 0x00, 0x00, 0x8c, 0x2d, 0xc3, 0x7f,
  0x04, 0xa8, 0xe6, 0xca, 0xc0, 0xcc, 0x37, 0x3b, 0x2a, 0x43, 0x26, 0x02,
  0xf9, 0x41, 0x4e, 0xd9, 0xdc, 0x20, 0x9c, 0xfe, 0xbc, 0xa7, 0xb7, 0x21,
  0x68, 0x87, 0x94, 0x7f, 0x1a, 0xeb, 0xc1, 0x7f, 0x7b, 0x95, 0xb9, 0x59,
  0x29, 0xb1, 0x8d, 0xb3, 0xb1, 0x20, 0x90, 0xc6, 0xaa, 0xf2, 0x3d, 0xf8,
  0x45, 0x71, 0xdb, 0x13, 0xbc, 0xdb, 0x05, 0xd1, 0xb2, 0x71, 0x7f, 0x2d,
  0x4e, 0xff, 0xff, 0xff, 0x04, 0x00, 0x00, 0x00, 0x10, 0x00, 0x00, 0x00,
  0xa8, 0x00, 0x00, 0x00, 0xec, 0x00, 0x00, 0x00, 0xf8, 0x00, 0x00, 0x00,
  0x57, 0xfe, 0xff, 0xff, 0x38, 0xff, 0xff, 0xff, 0x3c, 0xff, 0xff, 0xff,
  0x0f, 0x00, 0x00, 0x00, 0x4d, 0x4c, 0x49, 0x52, 0x20, 0x43, 0x6f, 0x6e,
  0x76, 0x65, 0x72, 0x74, 0x65, 0x64, 0x2e, 0x00, 0x01, 0x00, 0x00, 0x00,
  0x14, 0x00, 0x00, 0x00, 0x00, 0x00, 0x0e, 0x00, 0x18, 0x00, 0x14, 0x00,
  0x10, 0x00, 0x0c, 0x00, 0x08, 0x00, 0x04, 0x00, 0x0e, 0x00, 0x00, 0x00,
  0x14, 0x00, 0x00, 0x00, 0x1c, 0x00, 0x00, 0x00, 0x38, 0x01, 0x00, 0x00,
  0x3c, 0x01, 0x00, 0x00, 0x40, 0x01, 0x00, 0x00, 0x04, 0x00, 0x00, 0x00,
  0x6d, 0x61, 0x69, 0x6e, 0x00, 0x00, 0x00, 0x00, 0x04, 0x00, 0x00, 0x00,
  0xe0, 0x00, 0x00, 0x00, 0x98, 0x00, 0x00, 0x00, 0x50, 0x00, 0x00, 0x00,
  0x14, 0x00, 0x00, 0x00, 0x00, 0x00, 0x0e, 0x00, 0x1a, 0x00, 0x14, 0x00,
  0x10, 0x00, 0x0c, 0x00, 0x0b, 0x00, 0x04, 0x00, 0x0e, 0x00, 0x00, 0x00,
  0x1c, 0x00, 0x00, 0x00, 0x00, 0x00, 0x00, 0x09, 0x1c, 0x00, 0x00, 0x00,
  0x20, 0x00, 0x00, 0x00, 0x01, 0x00, 0x00, 0x00, 0x00, 0x00, 0x06, 0x00,
  0x08, 0x00, 0x04, 0x00, 0x06, 0x00, 0x00, 0x00, 0x00, 0x00, 0x80, 0x3f,
  0x01, 0x00, 0x00, 0x00, 0x0a, 0x00, 0x00, 0x00, 0x01, 0x00, 0x00, 0x00,
  0x09, 0x00, 0x00, 0x00, 0xca, 0xff, 0xff, 0xff, 0x14, 0x00, 0x00, 0x00,
  0x00, 0x00, 0x00, 0x08, 0x10, 0x00, 0x00, 0x00, 0x14, 0x00, 0x00, 0x00,
  0x04, 0x00, 0x04, 0x00, 0x04, 0x00, 0x00, 0x00, 0x01, 0x00, 0x00, 0x00,
  0x09, 0x00, 0x00, 0x00, 0x03, 0x00, 0x00, 0x00, 0x08, 0x00, 0x00, 0x00,
  0x02, 0x00, 0x00, 0x00, 0x01, 0x00, 0x00, 0x00, 0x00, 0x00, 0x0e, 0x00,
  0x14, 0x00, 0x00, 0x00, 0x10, 0x00, 0x0c, 0x00, 0x0b, 0x00, 0x04, 0x00,
  0x0e, 0x00, 0x00, 0x00, 0x10, 0x00, 0x00, 0x00, 0x00, 0x00, 0x00, 0x08,
  0x10, 0x00, 0x00, 0x00, 0x14, 0x00, 0x00, 0x00, 0xba, 0xff, 0xff, 0xff,
  0x00, 0x00, 0x00, 0x01, 0x01, 0x00, 0x00, 0x00, 0x08, 0x00, 0x00, 0x00,
  0x03, 0x00, 0x00, 0x00, 0x07, 0x00, 0x00, 0x00, 0x04, 0x00, 0x00, 0x00,
  0x03, 0x00, 0x00, 0x00, 0x00, 0x00, 0x0e, 0x00, 0x16, 0x00, 0x00, 0x00,
  0x10, 0x00, 0x0c, 0x00, 0x0b, 0x00, 0x04, 0x00, 0x0e, 0x00, 0x00, 0x00,
  0x18, 0x00, 0x00, 0x00, 0x00, 0x00, 0x00, 0x08, 0x18, 0x00, 0x00, 0x00,
  0x1c, 0x00, 0x00, 0x00, 0x00, 0x00, 0x06, 0x00, 0x08, 0x00, 0x07, 0x00,
  0x06, 0x00, 0x00, 0x00, 0x00, 0x00, 0x00, 0x01, 0x01, 0x00, 0x00, 0x00,
  0x07, 0x00, 0x00, 0x00, 0x03, 0x00, 0x00, 0x00, 0x00, 0x00, 0x00, 0x00,
  0x06, 0x00, 0x00, 0x00, 0x05, 0x00, 0x00, 0x00, 0x01, 0x00, 0x00, 0x00,
  0x0a, 0x00, 0x00, 0x00, 0x01, 0x00, 0x00, 0x00, 0x00, 0x00, 0x00, 0x00,
  0x0b, 0x00, 0x00, 0x00, 0x38, 0x0b, 0x00, 0x00, 0x80, 0x0a, 0x00, 0x00,
  0xc4, 0x09, 0x00, 0x00, 0x60, 0x08, 0x00, 0x00, 0x2c, 0x07, 0x00, 0x00,
  0x10, 0x05, 0x00, 0x00, 0x1c, 0x03, 0x00, 0x00, 0x30, 0x02, 0x00, 0x00,
  0x44, 0x01, 0x00, 0x00, 0x80, 0x00, 0x00, 0x00, 0x04, 0x00, 0x00, 0x00,
  0x0a, 0xf5, 0xff, 0xff, 0x00, 0x00, 0x00, 0x01, 0x18, 0x00, 0x00, 0x00,
  0x20, 0x00, 0x00, 0x00, 0x3c, 0x00, 0x00, 0x00, 0x0b, 0x00, 0x00, 0x00,
  0x00, 0x00, 0x00, 0x09, 0x50, 0x00, 0x00, 0x00, 0x02, 0x00, 0x00, 0x00,
  0xff, 0xff, 0xff, 0xff, 0x04, 0x00, 0x00, 0x00, 0xf4, 0xf4, 0xff, 0xff,
  0x08, 0x00, 0x00, 0x00, 0x10, 0x00, 0x00, 0x00, 0x01, 0x00, 0x00, 0x00,
  0x80, 0xff, 0xff, 0xff, 0xff, 0xff, 0xff, 0xff, 0x01, 0x00, 0x00, 0x00,
  0x00, 0x00, 0x80, 0x3b, 0x1b, 0x00, 0x00, 0x00, 0x53, 0x74, 0x61, 0x74,
  0x65, 0x66, 0x75, 0x6c, 0x50, 0x61, 0x72, 0x74, 0x69, 0x74, 0x69, 0x6f,
  0x6e, 0x65, 0x64, 0x43, 0x61, 0x6c, 0x6c, 0x5f, 0x31, 0x3a, 0x30, 0x00,
  0x02, 0x00, 0x00, 0x00, 0x01, 0x00, 0x00, 0x00, 0x04, 0x00, 0x00, 0x00,
  0x82, 0xf5, 0xff, 0xff, 0x00, 0x00, 0x00, 0x01, 0x18, 0x00, 0x00, 0x00,
  0x20, 0x00, 0x00, 0x00, 0x40, 0x00, 0x00, 0x00, 0x0a, 0x00, 0x00, 0x00,
  0x00, 0x00, 0x00, 0x09, 0x98, 0x00, 0x00, 0x00, 0x02, 0x00, 0x00, 0x00,
  0xff, 0xff, 0xff, 0xff, 0x04, 0x00, 0x00, 0x00, 0x6c, 0xf5, 0xff, 0xff,
  0x08, 0x00, 0x00, 0x00, 0x14, 0x00, 0x00, 0x00, 0x01, 0x00, 0x00, 0x00,
  0xf1, 0xff, 0xff, 0xff, 0xff, 0xff, 0xff, 0xff, 0x00, 0x00, 0x00, 0x00,
  0x01, 0x00, 0x00, 0x00, 0xc2, 0xc7, 0xe2, 0x3d, 0x5e, 0x00, 0x00, 0x00,
  0x53, 0x65, 0x6e, 0x74, 0x69, 0x6e, 0x65, 0x6c, 0x45, 0x64, 0x67, 0x65,
  0x5f, 0x52, 0x65, 0x61, 0x6c, 0x43, 0x6c, 0x61, 0x73, 0x73, 0x69, 0x66,
  0x69, 0x65, 0x72, 0x5f, 0x31, 0x2f, 0x64, 0x65, 0x6e, 0x73, 0x65, 0x5f,
  0x32, 0x5f, 0x31, 0x2f, 0x4d, 0x61, 0x74, 0x4d, 0x75, 0x6c, 0x3b, 0x53,
  0x65, 0x6e, 0x74, 0x69, 0x6e, 0x65, 0x6c, 0x45, 0x64, 0x67, 0x65, 0x5f,
  0x52, 0x65, 0x61, 0x6c, 0x43, 0x6c, 0x61, 0x73, 0x73, 0x69, 0x66, 0x69,
  0x65, 0x72, 0x5f, 0x31, 0x2f, 0x64, 0x65, 0x6e, 0x73, 0x65, 0x5f, 0x32,
  0x5f, 0x31, 0x2f, 0x42, 0x69, 0x61, 0x73, 0x41, 0x64, 0x64, 0x00, 0x00,
  0x02, 0x00, 0x00, 0x00, 0x01, 0x00, 0x00, 0x00, 0x04, 0x00, 0x00, 0x00,
  0x42, 0xf6, 0xff, 0xff, 0x00, 0x00, 0x00, 0x01, 0x18, 0x00, 0x00, 0x00,
  0x20, 0x00, 0x00, 0x00, 0x3c, 0x00, 0x00, 0x00, 0x09, 0x00, 0x00, 0x00,
  0x00, 0x00, 0x00, 0x09, 0xc0, 0x00, 0x00, 0x00, 0x02, 0x00, 0x00, 0x00,
  0xff, 0xff, 0xff, 0xff, 0x10, 0x00, 0x00, 0x00, 0x2c, 0xf6, 0xff, 0xff,
  0x08, 0x00, 0x00, 0x00, 0x10, 0x00, 0x00, 0x00, 0x01, 0x00, 0x00, 0x00,
  0x80, 0xff, 0xff, 0xff, 0xff, 0xff, 0xff, 0xff, 0x01, 0x00, 0x00, 0x00,
  0x09, 0x47, 0x2f, 0x3d, 0x8b, 0x00, 0x00, 0x00, 0x53, 0x65, 0x6e, 0x74,
  0x69, 0x6e, 0x65, 0x6c, 0x45, 0x64, 0x67, 0x65, 0x5f, 0x52, 0x65, 0x61,
  0x6c, 0x43, 0x6c, 0x61, 0x73, 0x73, 0x69, 0x66, 0x69, 0x65, 0x72, 0x5f,
  0x31, 0x2f, 0x64, 0x65, 0x6e, 0x73, 0x65, 0x5f, 0x31, 0x5f, 0x32, 0x2f,
  0x4d, 0x61, 0x74, 0x4d, 0x75, 0x6c, 0x3b, 0x53, 0x65, 0x6e, 0x74, 0x69,
  0x6e, 0x65, 0x6c, 0x45, 0x64, 0x67, 0x65, 0x5f, 0x52, 0x65, 0x61, 0x6c,
  0x43, 0x6c, 0x61, 0x73, 0x73, 0x69, 0x66, 0x69, 0x65, 0x72, 0x5f, 0x31,
  0x2f, 0x64, 0x65, 0x6e, 0x73, 0x65, 0x5f, 0x31, 0x5f, 0x32, 0x2f, 0x52,
  0x65, 0x6c, 0x75, 0x3b, 0x53, 0x65, 0x6e, 0x74, 0x69, 0x6e, 0x65, 0x6c,
  0x45, 0x64, 0x67, 0x65, 0x5f, 0x52, 0x65, 0x61, 0x6c, 0x43, 0x6c, 0x61,
  0x73, 0x73, 0x69, 0x66, 0x69, 0x65, 0x72, 0x5f, 0x31, 0x2f, 0x64, 0x65,
  0x6e, 0x73, 0x65, 0x5f, 0x31, 0x5f, 0x32, 0x2f, 0x42, 0x69, 0x61, 0x73,
  0x41, 0x64, 0x64, 0x00, 0x02, 0x00, 0x00, 0x00, 0x01, 0x00, 0x00, 0x00,
  0x10, 0x00, 0x00, 0x00, 0x2a, 0xf7, 0xff, 0xff, 0x00, 0x00, 0x00, 0x01,
  0x18, 0x00, 0x00, 0x00, 0x20, 0x00, 0x00, 0x00, 0x40, 0x00, 0x00, 0x00,
  0x08, 0x00, 0x00, 0x00, 0x00, 0x00, 0x00, 0x09, 0xc0, 0x00, 0x00, 0x00,
  0x02, 0x00, 0x00, 0x00, 0xff, 0xff, 0xff, 0xff, 0x20, 0x00, 0x00, 0x00,
  0x14, 0xf7, 0xff, 0xff, 0x08, 0x00, 0x00, 0x00, 0x14, 0x00, 0x00, 0x00,
  0x01, 0x00, 0x00, 0x00, 0x80, 0xff, 0xff, 0xff, 0xff, 0xff, 0xff, 0xff,
  0x00, 0x00, 0x00, 0x00, 0x01, 0x00, 0x00, 0x00, 0xfb, 0xa1, 0x0b, 0x3d,
  0x85, 0x00, 0x00, 0x00, 0x53, 0x65, 0x6e, 0x74, 0x69, 0x6e, 0x65, 0x6c,
  0x45, 0x64, 0x67, 0x65, 0x5f, 0x52, 0x65, 0x61, 0x6c, 0x43, 0x6c, 0x61,
  0x73, 0x73, 0x69, 0x66, 0x69, 0x65, 0x72, 0x5f, 0x31, 0x2f, 0x64, 0x65,
  0x6e, 0x73, 0x65, 0x5f, 0x31, 0x2f, 0x4d, 0x61, 0x74, 0x4d, 0x75, 0x6c,
  0x3b, 0x53, 0x65, 0x6e, 0x74, 0x69, 0x6e, 0x65, 0x6c, 0x45, 0x64, 0x67,
  0x65, 0x5f, 0x52, 0x65, 0x61, 0x6c, 0x43, 0x6c, 0x61, 0x73, 0x73, 0x69,
  0x66, 0x69, 0x65, 0x72, 0x5f, 0x31, 0x2f, 0x64, 0x65, 0x6e, 0x73, 0x65,
  0x5f, 0x31, 0x2f, 0x52, 0x65, 0x6c, 0x75, 0x3b, 0x53, 0x65, 0x6e, 0x74,
  0x69, 0x6e, 0x65, 0x6c, 0x45, 0x64, 0x67, 0x65, 0x5f, 0x52, 0x65, 0x61,
  0x6c, 0x43, 0x6c, 0x61, 0x73, 0x73, 0x69, 0x66, 0x69, 0x65, 0x72, 0x5f,
  0x31, 0x2f, 0x64, 0x65, 0x6e, 0x73, 0x65, 0x5f, 0x31, 0x2f, 0x42, 0x69,
  0x61, 0x73, 0x41, 0x64, 0x64, 0x00, 0x00, 0x00, 0x02, 0x00, 0x00, 0x00,
  0x01, 0x00, 0x00, 0x00, 0x20, 0x00, 0x00, 0x00, 0xc6, 0xf8, 0xff, 0xff,
  0x00, 0x00, 0x00, 0x01, 0x14, 0x00, 0x00, 0x00, 0xa4, 0x01, 0x00, 0x00,
  0x07, 0x00, 0x00, 0x00, 0x00, 0x00, 0x00, 0x09, 0xcc, 0x01, 0x00, 0x00,
  0xec, 0xf7, 0xff, 0xff, 0x08, 0x00, 0x00, 0x00, 0x08, 0x01, 0x00, 0x00,
  0x20, 0x00, 0x00, 0x00, 0x00, 0x00, 0x00, 0x00, 0x00, 0x00, 0x00, 0x00,
  0x00, 0x00, 0x00, 0x00, 0x00, 0x00, 0x00, 0x00, 0x00, 0x00, 0x00, 0x00,
  0x00, 0x00, 0x00, 0x00, 0x00, 0x00, 0x00, 0x00, 0x00, 0x00, 0x00, 0x00,
  0x00, 0x00, 0x00, 0x00, 0x00, 0x00, 0x00, 0x00, 0x00, 0x00, 0x00, 0x00,
  0x00, 0x00, 0x00, 0x00, 0x00, 0x00, 0x00, 0x00, 0x00, 0x00, 0x00, 0x00,
  0x00, 0x00, 0x00, 0x00, 0x00, 0x00, 0x00, 0x00, 0x00, 0x00, 0x00, 0x00,
  0x00, 0x00, 0x00, 0x00, 0x00, 0x00, 0x00, 0x00, 0x00, 0x00, 0x00, 0x00,
  0x00, 0x00, 0x00, 0x00, 0x00, 0x00, 0x00, 0x00, 0x00, 0x00, 0x00, 0x00,
  0x00, 0x00, 0x00, 0x00, 0x00, 0x00, 0x00, 0x00, 0x00, 0x00, 0x00, 0x00,
  0x00, 0x00, 0x00, 0x00, 0x00, 0x00, 0x00, 0x00, 0x00, 0x00, 0x00, 0x00,
  0x00, 0x00, 0x00, 0x00, 0x00, 0x00, 0x00, 0x00, 0x00, 0x00, 0x00, 0x00,
  0x00, 0x00, 0x00, 0x00, 0x00, 0x00, 0x00, 0x00, 0x00, 0x00, 0x00, 0x00,
  0x00, 0x00, 0x00, 0x00, 0x00, 0x00, 0x00, 0x00, 0x00, 0x00, 0x00, 0x00,
  0x00, 0x00, 0x00, 0x00, 0x00, 0x00, 0x00, 0x00, 0x00, 0x00, 0x00, 0x00,
  0x00, 0x00, 0x00, 0x00, 0x00, 0x00, 0x00, 0x00, 0x00, 0x00, 0x00, 0x00,
  0x00, 0x00, 0x00, 0x00, 0x00, 0x00, 0x00, 0x00, 0x00, 0x00, 0x00, 0x00,
  0x00, 0x00, 0x00, 0x00, 0x00, 0x00, 0x00, 0x00, 0x00, 0x00, 0x00, 0x00,
  0x00, 0x00, 0x00, 0x00, 0x00, 0x00, 0x00, 0x00, 0x00, 0x00, 0x00, 0x00,
  0x00, 0x00, 0x00, 0x00, 0x00, 0x00, 0x00, 0x00, 0x00, 0x00, 0x00, 0x00,
  0x00, 0x00, 0x00, 0x00, 0x00, 0x00, 0x00, 0x00, 0x00, 0x00, 0x00, 0x00,
  0x00, 0x00, 0x00, 0x00, 0x00, 0x00, 0x00, 0x00, 0x00, 0x00, 0x00, 0x00,
  0x00, 0x00, 0x00, 0x00, 0x00, 0x00, 0x00, 0x00, 0x20, 0x00, 0x00, 0x00,
  0xf3, 0xc7, 0x4b, 0x3b, 0x01, 0x9c, 0x49, 0x3b, 0xfc, 0x26, 0x62, 0x3b,
  0xd4, 0x04, 0x33, 0x3b, 0xb3, 0x42, 0x43, 0x3b, 0x78, 0xd1, 0x48, 0x3b,
  0x9a, 0x51, 0x35, 0x3b, 0x8e, 0x41, 0x2c, 0x3b, 0xf8, 0x7c, 0x54, 0x3b,
  0x51, 0xae, 0x1e, 0x3b, 0x17, 0x10, 0x7d, 0x3b, 0x29, 0x3f, 0x39, 0x3b,
  0x6c, 0x99, 0x65, 0x3b, 0x06, 0x63, 0x30, 0x3b, 0x4e, 0xca, 0x5a, 0x3b,
  0x8a, 0x30, 0x52, 0x3b, 0x67, 0xd3, 0x53, 0x3b, 0xe8, 0x57, 0x13, 0x3b,
  0x27, 0xf7, 0x4e, 0x3b, 0xcf, 0xb9, 0x54, 0x3b, 0xe4, 0xff, 0x0f, 0x3b,
  0xce, 0xa8, 0x3e, 0x3b, 0x65, 0xd2, 0x6b, 0x3b, 0xd1, 0xa9, 0x38, 0x3b,
  0x74, 0xdb, 0x52, 0x3b, 0x92, 0xbd, 0x42, 0x3b, 0x55, 0x4f, 0x4f, 0x3b,
  0x0d, 0x52, 0x34, 0x3b, 0xd5, 0xe6, 0x15, 0x3b, 0x6a, 0xce, 0x50, 0x3b,
  0xd2, 0x6a, 0x46, 0x3b, 0xb8, 0x26, 0x0c, 0x3b, 0x2c, 0x00, 0x00, 0x00,
  0x53, 0x65, 0x6e, 0x74, 0x69, 0x6e, 0x65, 0x6c, 0x45, 0x64, 0x67, 0x65,
  0x5f, 0x52, 0x65, 0x61, 0x6c, 0x43, 0x6c, 0x61, 0x73, 0x73, 0x69, 0x66,
  0x69, 0x65, 0x72, 0x5f, 0x31, 0x2f, 0x64, 0x65, 0x6e, 0x73, 0x65, 0x5f,
  0x31, 0x2f, 0x4d, 0x61, 0x74, 0x4d, 0x75, 0x6c, 0x00, 0x00, 0x00, 0x00,
  0x02, 0x00, 0x00, 0x00, 0x20, 0x00, 0x00, 0x00, 0x2a, 0x00, 0x00, 0x00,
  0xb6, 0xfa, 0xff, 0xff, 0x00, 0x00, 0x00, 0x01, 0x14, 0x00, 0x00, 0x00,
  0xa4, 0x01, 0x00, 0x00, 0x06, 0x00, 0x00, 0x00, 0x00, 0x00, 0x00, 0x02,
  0xf8, 0x01, 0x00, 0x00, 0xdc, 0xf9, 0xff, 0xff, 0x08, 0x00, 0x00, 0x00,
  0x08, 0x01, 0x00, 0x00, 0x20, 0x00, 0x00, 0x00, 0x00, 0x00, 0x00, 0x00,
  0x00, 0x00, 0x00, 0x00, 0x00, 0x00, 0x00, 0x00, 0x00, 0x00, 0x00, 0x00,
  0x00, 0x00, 0x00, 0x00, 0x00, 0x00, 0x00, 0x00, 0x00, 0x00, 0x00, 0x00,
  0x00, 0x00, 0x00, 0x00, 0x00, 0x00, 0x00, 0x00, 0x00, 0x00, 0x00, 0x00,
  0x00, 0x00, 0x00, 0x00, 0x00, 0x00, 0x00, 0x00, 0x00, 0x00, 0x00, 0x00,
  0x00, 0x00, 0x00, 0x00, 0x00, 0x00, 0x00, 0x00, 0x00, 0x00, 0x00, 0x00,
  0x00, 0x00, 0x00, 0x00, 0x00, 0x00, 0x00, 0x00, 0x00, 0x00, 0x00, 0x00,
  0x00, 0x00, 0x00, 0x00, 0x00, 0x00, 0x00, 0x00, 0x00, 0x00, 0x00, 0x00,
  0x00, 0x00, 0x00, 0x00, 0x00, 0x00, 0x00, 0x00, 0x00, 0x00, 0x00, 0x00,
  0x00, 0x00, 0x00, 0x00, 0x00, 0x00, 0x00, 0x00, 0x00, 0x00, 0x00, 0x00,
  0x00, 0x00, 0x00, 0x00, 0x00, 0x00, 0x00, 0x00, 0x00, 0x00, 0x00, 0x00,
  0x00, 0x00, 0x00, 0x00, 0x00, 0x00, 0x00, 0x00, 0x00, 0x00, 0x00, 0x00,
  0x00, 0x00, 0x00, 0x00, 0x00, 0x00, 0x00, 0x00, 0x00, 0x00, 0x00, 0x00,
  0x00, 0x00, 0x00, 0x00, 0x00, 0x00, 0x00, 0x00, 0x00, 0x00, 0x00, 0x00,
  0x00, 0x00, 0x00, 0x00, 0x00, 0x00, 0x00, 0x00, 0x00, 0x00, 0x00, 0x00,
  0x00, 0x00, 0x00, 0x00, 0x00, 0x00, 0x00, 0x00, 0x00, 0x00, 0x00, 0x00,
  0x00, 0x00, 0x00, 0x00, 0x00, 0x00, 0x00, 0x00, 0x00, 0x00, 0x00, 0x00,
  0x00, 0x00, 0x00, 0x00, 0x00, 0x00, 0x00, 0x00, 0x00, 0x00, 0x00, 0x00,
  0x00, 0x00, 0x00, 0x00, 0x00, 0x00, 0x00, 0x00, 0x00, 0x00, 0x00, 0x00,
  0x00, 0x00, 0x00, 0x00, 0x00, 0x00, 0x00, 0x00, 0x00, 0x00, 0x00, 0x00,
  0x00, 0x00, 0x00, 0x00, 0x00, 0x00, 0x00, 0x00, 0x00, 0x00, 0x00, 0x00,
  0x00, 0x00, 0x00, 0x00, 0x00, 0x00, 0x00, 0x00, 0x00, 0x00, 0x00, 0x00,
  0x20, 0x00, 0x00, 0x00, 0x3b, 0x75, 0x06, 0x39, 0x69, 0x06, 0x05, 0x39,
  0x05, 0x38, 0x15, 0x39, 0x28, 0x3d, 0xec, 0x38, 0x02, 0xd6, 0x00, 0x39,
  0xc6, 0x80, 0x04, 0x39, 0x1f, 0x46, 0xef, 0x38, 0x84, 0x50, 0xe3, 0x38,
  0xf9, 0x33, 0x0c, 0x39, 0x7b, 0x66, 0xd1, 0x38, 0x8f, 0xf9, 0x26, 0x39,
  0x17, 0x75, 0xf4, 0x38, 0x44, 0x7e, 0x17, 0x39, 0xfc, 0xc3, 0xe8, 0x38,
  0x7a, 0x5c, 0x10, 0x39, 0xb8, 0xaf, 0x0a, 0x39, 0x17, 0xc4, 0x0b, 0x39,
  0x5f, 0x70, 0xc2, 0x38, 0x1d, 0x8f, 0x08, 0x39, 0x1e, 0x5c, 0x0c, 0x39,
  0xbf, 0x06, 0xbe, 0x38, 0xa1, 0x99, 0xfb, 0x38, 0x55, 0x99, 0x1b, 0x39,
  0x02, 0xb0, 0xf3, 0x38, 0x7d, 0x20, 0x0b, 0x39, 0x2b, 0x7e, 0x00, 0x39,
  0x4c, 0xc9, 0x08, 0x39, 0xe4, 0xf4, 0xed, 0x38, 0xa2, 0xd0, 0xc5, 0x38,
  0x0f, 0xc6, 0x09, 0x39, 0x38, 0xeb, 0x02, 0x39, 0xae, 0xf2, 0xb8, 0x38,
  0x58, 0x00, 0x00, 0x00, 0x53, 0x65, 0x6e, 0x74, 0x69, 0x6e, 0x65, 0x6c,
  0x45, 0x64, 0x67, 0x65, 0x5f, 0x52, 0x65, 0x61, 0x6c, 0x43, 0x6c, 0x61,
  0x73, 0x73, 0x69, 0x66, 0x69, 0x65, 0x72, 0x5f, 0x31, 0x2f, 0x64, 0x65,
  0x6e, 0x73, 0x65, 0x5f, 0x31, 0x2f, 0x52, 0x65, 0x6c, 0x75, 0x3b, 0x53,
  0x65, 0x6e, 0x74, 0x69, 0x6e, 0x65, 0x6c, 0x45, 0x64, 0x67, 0x65, 0x5f,
  0x52, 0x65, 0x61, 0x6c, 0x43, 0x6c, 0x61, 0x73, 0x73, 0x69, 0x66, 0x69,
  0x65, 0x72, 0x5f, 0x31, 0x2f, 0x64, 0x65, 0x6e, 0x73, 0x65, 0x5f, 0x31,
  0x2f, 0x42, 0x69, 0x61, 0x73, 0x41, 0x64, 0x64, 0x00, 0x00, 0x00, 0x00,
  0x01, 0x00, 0x00, 0x00, 0x20, 0x00, 0x00, 0x00, 0xce, 0xfc, 0xff, 0xff,
  0x00, 0x00, 0x00, 0x01, 0x14, 0x00, 0x00, 0x00, 0xe4, 0x00, 0x00, 0x00,
  0x05, 0x00, 0x00, 0x00, 0x00, 0x00, 0x00, 0x09, 0x0c, 0x01, 0x00, 0x00,
  0xf4, 0xfb, 0xff, 0xff, 0x08, 0x00, 0x00, 0x00, 0x88, 0x00, 0x00, 0x00,
  0x10, 0x00, 0x00, 0x00, 0x00, 0x00, 0x00, 0x00, 0x00, 0x00, 0x00, 0x00,
  0x00, 0x00, 0x00, 0x00, 0x00, 0x00, 0x00, 0x00, 0x00, 0x00, 0x00, 0x00,
  0x00, 0x00, 0x00, 0x00, 0x00, 0x00, 0x00, 0x00, 0x00, 0x00, 0x00, 0x00,
  0x00, 0x00, 0x00, 0x00, 0x00, 0x00, 0x00, 0x00, 0x00, 0x00, 0x00, 0x00,
  0x00, 0x00, 0x00, 0x00, 0x00, 0x00, 0x00, 0x00, 0x00, 0x00, 0x00, 0x00,
  0x00, 0x00, 0x00, 0x00, 0x00, 0x00, 0x00, 0x00, 0x00, 0x00, 0x00, 0x00,
  0x00, 0x00, 0x00, 0x00, 0x00, 0x00, 0x00, 0x00, 0x00, 0x00, 0x00, 0x00,
  0x00, 0x00, 0x00, 0x00, 0x00, 0x00, 0x00, 0x00, 0x00, 0x00, 0x00, 0x00,
  0x00, 0x00, 0x00, 0x00, 0x00, 0x00, 0x00, 0x00, 0x00, 0x00, 0x00, 0x00,
  0x00, 0x00, 0x00, 0x00, 0x00, 0x00, 0x00, 0x00, 0x00, 0x00, 0x00, 0x00,
  0x00, 0x00, 0x00, 0x00, 0x00, 0x00, 0x00, 0x00, 0x00, 0x00, 0x00, 0x00,
  0x10, 0x00, 0x00, 0x00, 0xf7, 0x57, 0x6d, 0x3b, 0x98, 0xf4, 0x80, 0x3b,
  0xc9, 0x16, 0x76, 0x3b, 0x58, 0x5e, 0x52, 0x3b, 0x94, 0x74, 0x41, 0x3b,
  0x3b, 0x78, 0x59, 0x3b, 0x5a, 0xf8, 0x84, 0x3b, 0x6b, 0x09, 0x5c, 0x3b,
  0x28, 0x69, 0x6a, 0x3b, 0x5e, 0xfe, 0x68, 0x3b, 0x98, 0xf6, 0x5b, 0x3b,
  0x24, 0x95, 0x7a, 0x3b, 0x8c, 0x0a, 0x56, 0x3b, 0xe6, 0x8e, 0x77, 0x3b,
  0xee, 0xa0, 0x58, 0x3b, 0x5b, 0x3c, 0x83, 0x3b, 0x2e, 0x00, 0x00, 0x00,
  0x53, 0x65, 0x6e, 0x74, 0x69, 0x6e, 0x65, 0x6c, 0x45, 0x64, 0x67, 0x65,
  0x5f, 0x52, 0x65, 0x61, 0x6c, 0x43, 0x6c, 0x61, 0x73, 0x73, 0x69, 0x66,
  0x69, 0x65, 0x72, 0x5f, 0x31, 0x2f, 0x64, 0x65, 0x6e, 0x73, 0x65, 0x5f,
  0x31, 0x5f, 0x32, 0x2f, 0x4d, 0x61, 0x74, 0x4d, 0x75, 0x6c, 0x00, 0x00,
  0x02, 0x00, 0x00, 0x00, 0x10, 0x00, 0x00, 0x00, 0x20, 0x00, 0x00, 0x00,
  0xfe, 0xfd, 0xff, 0xff, 0x00, 0x00, 0x00, 0x01, 0x14, 0x00, 0x00, 0x00,
  0xe8, 0x00, 0x00, 0x00, 0x04, 0x00, 0x00, 0x00, 0x00, 0x00, 0x00, 0x02,
  0x40, 0x01, 0x00, 0x00, 0x24, 0xfd, 0xff, 0xff, 0x08, 0x00, 0x00, 0x00,
  0x8c, 0x00, 0x00, 0x00, 0x10, 0x00, 0x00, 0x00, 0x00, 0x00, 0x00, 0x00,
  0x00, 0x00, 0x00, 0x00, 0x00, 0x00, 0x00, 0x00, 0x00, 0x00, 0x00, 0x00,
  0x00, 0x00, 0x00, 0x00, 0x00, 0x00, 0x00, 0x00, 0x00, 0x00, 0x00, 0x00,
  0x00, 0x00, 0x00, 0x00, 0x00, 0x00, 0x00, 0x00, 0x00, 0x00, 0x00, 0x00,
  0x00, 0x00, 0x00, 0x00, 0x00, 0x00, 0x00, 0x00, 0x00, 0x00, 0x00, 0x00,
  0x00, 0x00, 0x00, 0x00, 0x00, 0x00, 0x00, 0x00, 0x00, 0x00, 0x00, 0x00,
  0x00, 0x00, 0x00, 0x00, 0x00, 0x00, 0x00, 0x00, 0x00, 0x00, 0x00, 0x00,
  0x00, 0x00, 0x00, 0x00, 0x00, 0x00, 0x00, 0x00, 0x00, 0x00, 0x00, 0x00,
  0x00, 0x00, 0x00, 0x00, 0x00, 0x00, 0x00, 0x00, 0x00, 0x00, 0x00, 0x00,
  0x00, 0x00, 0x00, 0x00, 0x00, 0x00, 0x00, 0x00, 0x00, 0x00, 0x00, 0x00,
  0x00, 0x00, 0x00, 0x00, 0x00, 0x00, 0x00, 0x00, 0x00, 0x00, 0x00, 0x00,
  0x00, 0x00, 0x00, 0x00, 0x00, 0x00, 0x00, 0x00, 0x10, 0x00, 0x00, 0x00,
  0xf0, 0x74, 0x01, 0x39, 0xce, 0xac, 0x0c, 0x39, 0x15, 0x3a, 0x06, 0x39,
  0xab, 0x7c, 0xe5, 0x38, 0x69, 0x09, 0xd3, 0x38, 0xc4, 0x3b, 0xed, 0x38,
  0xf7, 0x0d, 0x11, 0x39, 0xae, 0x08, 0xf0, 0x38, 0xd5, 0xb6, 0xff, 0x38,
  0x13, 0x2b, 0xfe, 0x38, 0x25, 0xf4, 0xef, 0x38, 0x88, 0xad, 0x08, 0x39,
  0x51, 0x7e, 0xe9, 0x38, 0x3a, 0x07, 0x07, 0x39, 0xe6, 0x50, 0xec, 0x38,
  0x9e, 0x29, 0x0f, 0x39, 0x5c, 0x00, 0x00, 0x00, 0x53, 0x65, 0x6e, 0x74,
  0x69, 0x6e, 0x65, 0x6c, 0x45, 0x64, 0x67, 0x65, 0x5f, 0x52, 0x65, 0x61,
  0x6c, 0x43, 0x6c, 0x61, 0x73, 0x73, 0x69, 0x66, 0x69, 0x65, 0x72, 0x5f,
  0x31, 0x2f, 0x64, 0x65, 0x6e, 0x73, 0x65, 0x5f, 0x31, 0x5f, 0x32, 0x2f,
  0x52, 0x65, 0x6c, 0x75, 0x3b, 0x53, 0x65, 0x6e, 0x74, 0x69, 0x6e, 0x65,
  0x6c, 0x45, 0x64, 0x67, 0x65, 0x5f, 0x52, 0x65, 0x61, 0x6c, 0x43, 0x6c,
  0x61, 0x73, 0x73, 0x69, 0x66, 0x69, 0x65, 0x72, 0x5f, 0x31, 0x2f, 0x64,
  0x65, 0x6e, 0x73, 0x65, 0x5f, 0x31, 0x5f, 0x32, 0x2f, 0x42, 0x69, 0x61,
  0x73, 0x41, 0x64, 0x64, 0x00, 0x00, 0x00, 0x00, 0x01, 0x00, 0x00, 0x00,
  0x10, 0x00, 0x00, 0x00, 0x5e, 0xff, 0xff, 0xff, 0x00, 0x00, 0x00, 0x01,
  0x14, 0x00, 0x00, 0x00, 0x54, 0x00, 0x00, 0x00, 0x03, 0x00, 0x00, 0x00,
  0x00, 0x00, 0x00, 0x09, 0x7c, 0x00, 0x00, 0x00, 0x84, 0xfe, 0xff, 0xff,
  0x08, 0x00, 0x00, 0x00, 0x28, 0x00, 0x00, 0x00, 0x04, 0x00, 0x00, 0x00,
  0x00, 0x00, 0x00, 0x00, 0x00, 0x00, 0x00, 0x00, 0x00, 0x00, 0x00, 0x00,
  0x00, 0x00, 0x00, 0x00, 0x00, 0x00, 0x00, 0x00, 0x00, 0x00, 0x00, 0x00,
  0x00, 0x00, 0x00, 0x00, 0x00, 0x00, 0x00, 0x00, 0x04, 0x00, 0x00, 0x00,
  0xfb, 0x73, 0xb1, 0x3b, 0xab, 0xf4, 0xa0, 0x3b, 0x53, 0x85, 0x9c, 0x3b,
  0x3b, 0xe7, 0xaa, 0x3b, 0x2e, 0x00, 0x00, 0x00, 0x53, 0x65, 0x6e, 0x74,
  0x69, 0x6e, 0x65, 0x6c, 0x45, 0x64, 0x67, 0x65, 0x5f, 0x52, 0x65, 0x61,
  0x6c, 0x43, 0x6c, 0x61, 0x73, 0x73, 0x69, 0x66, 0x69, 0x65, 0x72, 0x5f,
  0x31, 0x2f, 0x64, 0x65, 0x6e, 0x73, 0x65, 0x5f, 0x32, 0x5f, 0x31, 0x2f,
  0x4d, 0x61, 0x74, 0x4d, 0x75, 0x6c, 0x00, 0x00, 0x02, 0x00, 0x00, 0x00,
  0x04, 0x00, 0x00, 0x00, 0x10, 0x00, 0x00, 0x00, 0x00, 0x00, 0x16, 0x00,
  0x1c, 0x00, 0x18, 0x00, 0x17, 0x00, 0x10, 0x00, 0x0c, 0x00, 0x08, 0x00,
  0x00, 0x00, 0x00, 0x00, 0x00, 0x00, 0x07, 0x00, 0x16, 0x00, 0x00, 0x00,
  0x00, 0x00, 0x00, 0x01, 0x14, 0x00, 0x00, 0x00, 0x54, 0x00, 0x00, 0x00,
  0x02, 0x00, 0x00, 0x00, 0x00, 0x00, 0x00, 0x02, 0x7c, 0x00, 0x00, 0x00,
  0x3c, 0xff, 0xff, 0xff, 0x08, 0x00, 0x00, 0x00, 0x28, 0x00, 0x00, 0x00,
  0x04, 0x00, 0x00, 0x00, 0x00, 0x00, 0x00, 0x00, 0x00, 0x00, 0x00, 0x00,
  0x00, 0x00, 0x00, 0x00, 0x00, 0x00, 0x00, 0x00, 0x00, 0x00, 0x00, 0x00,
  0x00, 0x00, 0x00, 0x00, 0x00, 0x00, 0x00, 0x00, 0x00, 0x00, 0x00, 0x00,
  0x04, 0x00, 0x00, 0x00, 0x0c, 0xff, 0x72, 0x39, 0xd5, 0x67, 0x5c, 0x39,
  0x24, 0x55, 0x56, 0x39, 0xfb, 0x06, 0x6a, 0x39, 0x2f, 0x00, 0x00, 0x00,
  0x53, 0x65, 0x6e, 0x74, 0x69, 0x6e, 0x65, 0x6c, 0x45, 0x64, 0x67, 0x65,
  0x5f, 0x52, 0x65, 0x61, 0x6c, 0x43, 0x6c, 0x61, 0x73, 0x73, 0x69, 0x66,
  0x69, 0x65, 0x72, 0x5f, 0x31, 0x2f, 0x64, 0x65, 0x6e, 0x73, 0x65, 0x5f,
  0x32, 0x5f, 0x31, 0x2f, 0x42, 0x69, 0x61, 0x73, 0x41, 0x64, 0x64, 0x00,
  0x01, 0x00, 0x00, 0x00, 0x04, 0x00, 0x00, 0x00, 0x00, 0x00, 0x16, 0x00,
  0x20, 0x00, 0x1c, 0x00, 0x1b, 0x00, 0x14, 0x00, 0x10, 0x00, 0x0c, 0x00,
  0x00, 0x00, 0x00, 0x00, 0x08, 0x00, 0x07, 0x00, 0x16, 0x00, 0x00, 0x00,
  0x00, 0x00, 0x00, 0x01, 0x18, 0x00, 0x00, 0x00, 0x2c, 0x00, 0x00, 0x00,
  0x48, 0x00, 0x00, 0x00, 0x01, 0x00, 0x00, 0x00, 0x00, 0x00, 0x00, 0x09,
  0x60, 0x00, 0x00, 0x00, 0x02, 0x00, 0x00, 0x00, 0xff, 0xff, 0xff, 0xff,
  0x2a, 0x00, 0x00, 0x00, 0x0c, 0x00, 0x0c, 0x00, 0x00, 0x00, 0x00, 0x00,
  0x08, 0x00, 0x04, 0x00, 0x0c, 0x00, 0x00, 0x00, 0x08, 0x00, 0x00, 0x00,
  0x10, 0x00, 0x00, 0x00, 0x01, 0x00, 0x00, 0x00, 0xf0, 0xff, 0xff, 0xff,
  0xff, 0xff, 0xff, 0xff, 0x01, 0x00, 0x00, 0x00, 0xae, 0xe9, 0x28, 0x3d,
  0x1d, 0x00, 0x00, 0x00, 0x73, 0x65, 0x72, 0x76, 0x69, 0x6e, 0x67, 0x5f,
  0x64, 0x65, 0x66, 0x61, 0x75, 0x6c, 0x74, 0x5f, 0x69, 0x6e, 0x70, 0x75,
  0x74, 0x5f, 0x6c, 0x61, 0x79, 0x65, 0x72, 0x3a, 0x30, 0x00, 0x00, 0x00,
  0x02, 0x00, 0x00, 0x00, 0x01, 0x00, 0x00, 0x00, 0x2a, 0x00, 0x00, 0x00,
  0x02, 0x00, 0x00, 0x00, 0x24, 0x00, 0x00, 0x00, 0x04, 0x00, 0x00, 0x00,
  0xf0, 0xff, 0xff, 0xff, 0x19, 0x00, 0x00, 0x00, 0x02, 0x00, 0x00, 0x00,
  0x00, 0x00, 0x00, 0x19, 0x0c, 0x00, 0x10, 0x00, 0x0f, 0x00, 0x00, 0x00,
  0x08, 0x00, 0x04, 0x00, 0x0c, 0x00, 0x00, 0x00, 0x09, 0x00, 0x00, 0x00,
  0x04, 0x00, 0x00, 0x00, 0x00, 0x00, 0x00, 0x09
};

const unsigned int fault_model_data_len = 6152u;

#endif  // FAULT_MODEL_H
